//tm0_tm1_tm2_tm3
@0
00010001000100010001000100010001_00030003000300030003000300030003_00020002000200020002000200020002_00010001000100010001000100010001
@1
00020002000200020002000200020002_00030003000300030003000300030003_00040004000400040004000400040004_00050005000500050005000500050005
@2
00010001000100010001000100010001_00020002000200020002000200020002_00030003000300030003000300030003_00040004000400040004000400040004
@3
00000000000000000000000000000000_00010001000100010001000100010001_00020002000200020002000200020002_00030003000300030003000300030003
@4
00010001000100010001000100010001_00030003000300030003000300030003_00020002000200020002000200020002_00010001000100010001000100010001
@5
00020002000200020002000200020002_00030003000300030003000300030003_00040004000400040004000400040004_00050005000500050005000500050005
@6
00010001000100010001000100010001_00020002000200020002000200020002_00030003000300030003000300030003_00040004000400040004000400040004
@7
00000000000000000000000000000000_00010001000100010001000100010001_00020002000200020002000200020002_00030003000300030003000300030003
@8
00010001000100010001000100010001_00030003000300030003000300030003_00020002000200020002000200020002_00010001000100010001000100010001
@9
00020002000200020002000200020002_00030003000300030003000300030003_00040004000400040004000400040004_00050005000500050005000500050005
@10
00010001000100010001000100010001_00020002000200020002000200020002_00030003000300030003000300030003_00040004000400040004000400040004
@11
00000000000000000000000000000000_00010001000100010001000100010001_00020002000200020002000200020002_00030003000300030003000300030003
@12
00010001000100010001000100010001_00030003000300030003000300030003_00020002000200020002000200020002_00010001000100010001000100010001
@13
00020002000200020002000200020002_00030003000300030003000300030003_00040004000400040004000400040004_00050005000500050005000500050005
@14
00010001000100010001000100010001_00020002000200020002000200020002_00030003000300030003000300030003_00040004000400040004000400040004
@15
00000000000000000000000000000000_00010001000100010001000100010001_00020002000200020002000200020002_00030003000300030003000300030003
@16
00010001000100010001000100010001_00030003000300030003000300030003_00020002000200020002000200020002_00010001000100010001000100010001
@17
00020002000200020002000200020002_00030003000300030003000300030003_00040004000400040004000400040004_00050005000500050005000500050005
@18
00010001000100010001000100010001_00020002000200020002000200020002_00030003000300030003000300030003_00040004000400040004000400040004
@19
00000000000000000000000000000000_00010001000100010001000100010001_00020002000200020002000200020002_00030003000300030003000300030003
@20
00010001000100010001000100010001_00030003000300030003000300030003_00020002000200020002000200020002_00010001000100010001000100010001
@21
00020002000200020002000200020002_00030003000300030003000300030003_00040004000400040004000400040004_00050005000500050005000500050005
@22
00010001000100010001000100010001_00020002000200020002000200020002_00030003000300030003000300030003_00040004000400040004000400040004
@23
00000000000000000000000000000000_00010001000100010001000100010001_00020002000200020002000200020002_00030003000300030003000300030003
@24
00010001000100010001000100010001_00030003000300030003000300030003_00020002000200020002000200020002_00010001000100010001000100010001
@25
00020002000200020002000200020002_00030003000300030003000300030003_00040004000400040004000400040004_00050005000500050005000500050005
@26
00010001000100010001000100010001_00020002000200020002000200020002_00030003000300030003000300030003_00040004000400040004000400040004
@27
00000000000000000000000000000000_00010001000100010001000100010001_00020002000200020002000200020002_00030003000300030003000300030003
@28
00010001000100010001000100010001_00030003000300030003000300030003_00020002000200020002000200020002_00010001000100010001000100010001
@29
00020002000200020002000200020002_00030003000300030003000300030003_00040004000400040004000400040004_00050005000500050005000500050005
@30
00010001000100010001000100010001_00020002000200020002000200020002_00030003000300030003000300030003_00040004000400040004000400040004
@31
00000000000000000000000000000000_00010001000100010001000100010001_00020002000200020002000200020002_00030003000300030003000300030003