//tm0_tm1_tm2_tm3
@0
0101010101010101_0303030303030303_0202020202020202_0101010101010101
@1
0202020202020202_0303030303030303_0404040404040404_0505050505050505
@2
0101010101010101_0202020202020202_0303030303030303_0404040404040404
@3
0000000000000000_0101010101010101_0202020202020202_0303030303030303
@4
0101010101010101_0303030303030303_0202020202020202_0101010101010101
@5
0202020202020202_0303030303030303_0404040404040404_0505050505050505
@6
0101010101010101_0202020202020202_0303030303030303_0404040404040404
@7
0000000000000000_0101010101010101_0202020202020202_0303030303030303
@8
0101010101010101_0303030303030303_0202020202020202_0101010101010101
@9
0202020202020202_0303030303030303_0404040404040404_0505050505050505
@10
0101010101010101_0202020202020202_0303030303030303_0404040404040404
@11
0000000000000000_0101010101010101_0202020202020202_0303030303030303
@12
0101010101010101_0303030303030303_0202020202020202_0101010101010101
@13
0202020202020202_0303030303030303_0404040404040404_0505050505050505
@14
0101010101010101_0202020202020202_0303030303030303_0404040404040404
@15
0000000000000000_0101010101010101_0202020202020202_0303030303030303
@16
0101010101010101_0303030303030303_0202020202020202_0101010101010101
@17
0202020202020202_0303030303030303_0404040404040404_0505050505050505
@18
0101010101010101_0202020202020202_0303030303030303_0404040404040404
@19
0000000000000000_0101010101010101_0202020202020202_0303030303030303
@20
0101010101010101_0303030303030303_0202020202020202_0101010101010101
@21
0202020202020202_0303030303030303_0404040404040404_0505050505050505
@22
0101010101010101_0202020202020202_0303030303030303_0404040404040404
@23
0000000000000000_0101010101010101_0202020202020202_0303030303030303
@24
0101010101010101_0303030303030303_0202020202020202_0101010101010101
@25
0202020202020202_0303030303030303_0404040404040404_0505050505050505
@26
0101010101010101_0202020202020202_0303030303030303_0404040404040404
@27
0000000000000000_0101010101010101_0202020202020202_0303030303030303
@28
0101010101010101_0303030303030303_0202020202020202_0101010101010101
@29
0202020202020202_0303030303030303_0404040404040404_0505050505050505
@30
0101010101010101_0202020202020202_0303030303030303_0404040404040404
@31
0000000000000000_0101010101010101_0202020202020202_0303030303030303