00000000000000000000000000000000_00000000000000000000000000000000_00000000000000000000000000000000_00000000000000000000000000000000
00000000000000000000000000000000_00000000000000000000000000000000_00000000000000000000000000000000_00000000000000000000000000000000
00000000000000000000000000000000_00000000000000000000000000000000_00000000000000000000000000000000_00000000000000000000000000000000
00000000000000000000000000000000_00000000000000000000000000000000_00000000000000000000000000000000_00000000000000000000000000000000
00000000000000000000000000000000_00000000000000000000000000000000_00000000000000000000000000000000_00000000000000000000000000000000
00000000000000000000000000000000_00000000000000000000000000000000_00000000000000000000000000000000_00000000000000000000000000000000
00000000000000000000000000000000_00000000000000000000000000000000_00000000000000000000000000000000_00000000000000000000000000000000
00000000000000000000000000000000_00000000000000000000000000000000_00000000000000000000000000000000_00000000000000000000000000000000
00000000000000000000000000000000_00000000000000000000000000000000_00000000000000000000000000000000_00000000000000000000000000000000
00000000000000000000000000000000_00000000000000000000000000000000_00000000000000000000000000000000_00000000000000000000000000000000
00000000000000000000000000000000_00000000000000000000000000000000_00000000000000000000000000000000_00000000000000000000000000000000
00000000000000000000000000000000_00000000000000000000000000000000_00000000000000000000000000000000_00000000000000000000000000000000
00000000000000000000000000000000_00000000000000000000000000000000_00000000000000000000000000000000_00000000000000000000000000000000
00000000000000000000000000000000_00000000000000000000000000000000_00000000000000000000000000000000_00000000000000000000000000000000
00000000000000000000000000000000_00000000000000000000000000000000_00000000000000000000000000000000_00000000000000000000000000000000
00000000000000000000000000000000_00000000000000000000000000000000_00000000000000000000000000000000_00000000000000000000000000000000
00000000000000000000000000000000_00000000000000000000000000000000_00000000000000000000000000000000_00000000000000000000000000000000
00000000000000000000000000000000_00000000000000000000000000000000_00000000000000000000000000000000_00000000000000000000000000000000
00000000000000000000000000000000_00000000000000000000000000000000_00000000000000000000000000000000_00000000000000000000000000000000
00000000000000000000000000000000_00000000000000000000000000000000_00000000000000000000000000000000_00000000000000000000000000000000
00000000000000000000000000000000_00000000000000000000000000000000_00000000000000000000000000000000_00000000000000000000000000000000
00000000000000000000000000000000_00000000000000000000000000000000_00000000000000000000000000000000_00000000000000000000000000000000
00000000000000000000000000000000_00000000000000000000000000000000_00000000000000000000000000000000_00000000000000000000000000000000
00000000000000000000000000000000_00000000000000000000000000000000_00000000000000000000000000000000_00000000000000000000000000000000
00000000000000000000000000000000_00000000000000000000000000000000_00000000000000000000000000000000_00000000000000000000000000000000
00000000000000000000000000000000_00000000000000000000000000000000_00000000000000000000000000000000_00000000000000000000000000000000
00000000000000000000000000000000_00000000000000000000000000000000_00000000000000000000000000000000_00000000000000000000000000000000
00000000000000000000000000000000_00000000000000000000000000000000_00000000000000000000000000000000_00000000000000000000000000000000
00000000000000000000000000000000_00000000000000000000000000000000_00000000000000000000000000000000_00000000000000000000000000000000
00000000000000000000000000000000_00000000000000000000000000000000_00000000000000000000000000000000_00000000000000000000000000000000
00000000000000000000000000000000_00000000000000000000000000000000_00000000000000000000000000000000_00000000000000000000000000000000
00000000000000000000000000000000_00000000000000000000000000000000_00000000000000000000000000000000_00000000000000000000000000000000