@0
39ce739ce739ce739ce7_318c6318c6318c6318c6_294a5294a5294a5294a5_21084210842108421084_18c6318c6318c6318c63_10842108421084210842_08421084210842108421_00000000000000000000_39ce739ce739ce739ce7_318c6318c6318c6318c6_294a5294a5294a5294a5_21084210842108421084_18c6318c6318c6318c63_10842108421084210842_08421084210842108421_00000000000000000000
@1
7bdef7bdef7bdef7bdef_739ce739ce739ce739ce_6b5ad6b5ad6b5ad6b5ad_6318c6318c6318c6318c_5ad6b5ad6b5ad6b5ad6b_5294a5294a5294a5294a_4a5294a5294a5294a529_42108421084210842108_7bdef7bdef7bdef7bdef_739ce739ce739ce739ce_6b5ad6b5ad6b5ad6b5ad_6318c6318c6318c6318c_5ad6b5ad6b5ad6b5ad6b_5294a5294a5294a5294a_4a5294a5294a5294a529_42108421084210842108
@2
bdef7bdef7bdef7bdef7_b5ad6b5ad6b5ad6b5ad6_ad6b5ad6b5ad6b5ad6b5_a5294a5294a5294a5294_9ce739ce739ce739ce73_94a5294a5294a5294a52_8c6318c6318c6318c631_84210842108421084210_bdef7bdef7bdef7bdef7_b5ad6b5ad6b5ad6b5ad6_ad6b5ad6b5ad6b5ad6b5_a5294a5294a5294a5294_9ce739ce739ce739ce73_94a5294a5294a5294a52_8c6318c6318c6318c631_84210842108421084210
@3
ffffffffffffffffffff_f7bdef7bdef7bdef7bde_ef7bdef7bdef7bdef7bd_e739ce739ce739ce739c_def7bdef7bdef7bdef7b_d6b5ad6b5ad6b5ad6b5a_ce739ce739ce739ce739_c6318c6318c6318c6318_ffffffffffffffffffff_f7bdef7bdef7bdef7bde_ef7bdef7bdef7bdef7bd_e739ce739ce739ce739c_def7bdef7bdef7bdef7b_d6b5ad6b5ad6b5ad6b5a_ce739ce739ce739ce739_c6318c6318c6318c6318
