Memory_Initialization_Radix = 16;
Memory_Initialization_Vector = 
0101010101010101030303030303030302020202020202020101010101010101,
0202020202020202030303030303030304040404040404040505050505050505,
0101010101010101020202020202020203030303030303030404040404040404,
0000000000000000010101010101010102020202020202020303030303030303,
0101010101010101030303030303030302020202020202020101010101010101,
0202020202020202030303030303030304040404040404040505050505050505,
0101010101010101020202020202020203030303030303030404040404040404,
0000000000000000010101010101010102020202020202020303030303030303,
0101010101010101030303030303030302020202020202020101010101010101,
0202020202020202030303030303030304040404040404040505050505050505,
0101010101010101020202020202020203030303030303030404040404040404,
0000000000000000010101010101010102020202020202020303030303030303,
0101010101010101030303030303030302020202020202020101010101010101,
0202020202020202030303030303030304040404040404040505050505050505,
0101010101010101020202020202020203030303030303030404040404040404,
0000000000000000010101010101010102020202020202020303030303030303,
0101010101010101030303030303030302020202020202020101010101010101,
0202020202020202030303030303030304040404040404040505050505050505,
0101010101010101020202020202020203030303030303030404040404040404,
0000000000000000010101010101010102020202020202020303030303030303,
0101010101010101030303030303030302020202020202020101010101010101,
0202020202020202030303030303030304040404040404040505050505050505,
0101010101010101020202020202020203030303030303030404040404040404,
0000000000000000010101010101010102020202020202020303030303030303,
0101010101010101030303030303030302020202020202020101010101010101,
0202020202020202030303030303030304040404040404040505050505050505,
0101010101010101020202020202020203030303030303030404040404040404,
0000000000000000010101010101010102020202020202020303030303030303,
0101010101010101030303030303030302020202020202020101010101010101,
0202020202020202030303030303030304040404040404040505050505050505,
0101010101010101020202020202020203030303030303030404040404040404,
0000000000000000010101010101010102020202020202020303030303030303;