Memory_Initialization_Radix = 16;
Memory_Initialization_Vector = 
00010001000100010001000100010001000300030003000300030003000300030002000200020002000200020002000200010001000100010001000100010001,
00020002000200020002000200020002000300030003000300030003000300030004000400040004000400040004000400050005000500050005000500050005,
00010001000100010001000100010001000200020002000200020002000200020003000300030003000300030003000300040004000400040004000400040004,
00000000000000000000000000000000000100010001000100010001000100010002000200020002000200020002000200030003000300030003000300030003,
00010001000100010001000100010001000300030003000300030003000300030002000200020002000200020002000200010001000100010001000100010001,
00020002000200020002000200020002000300030003000300030003000300030004000400040004000400040004000400050005000500050005000500050005,
00010001000100010001000100010001000200020002000200020002000200020003000300030003000300030003000300040004000400040004000400040004,
00000000000000000000000000000000000100010001000100010001000100010002000200020002000200020002000200030003000300030003000300030003,
00010001000100010001000100010001000300030003000300030003000300030002000200020002000200020002000200010001000100010001000100010001,
00020002000200020002000200020002000300030003000300030003000300030004000400040004000400040004000400050005000500050005000500050005,
00010001000100010001000100010001000200020002000200020002000200020003000300030003000300030003000300040004000400040004000400040004,
00000000000000000000000000000000000100010001000100010001000100010002000200020002000200020002000200030003000300030003000300030003,
00010001000100010001000100010001000300030003000300030003000300030002000200020002000200020002000200010001000100010001000100010001,
00020002000200020002000200020002000300030003000300030003000300030004000400040004000400040004000400050005000500050005000500050005,
00010001000100010001000100010001000200020002000200020002000200020003000300030003000300030003000300040004000400040004000400040004,
00000000000000000000000000000000000100010001000100010001000100010002000200020002000200020002000200030003000300030003000300030003,
00010001000100010001000100010001000300030003000300030003000300030002000200020002000200020002000200010001000100010001000100010001,
00020002000200020002000200020002000300030003000300030003000300030004000400040004000400040004000400050005000500050005000500050005,
00010001000100010001000100010001000200020002000200020002000200020003000300030003000300030003000300040004000400040004000400040004,
00000000000000000000000000000000000100010001000100010001000100010002000200020002000200020002000200030003000300030003000300030003,
00010001000100010001000100010001000300030003000300030003000300030002000200020002000200020002000200010001000100010001000100010001,
00020002000200020002000200020002000300030003000300030003000300030004000400040004000400040004000400050005000500050005000500050005,
00010001000100010001000100010001000200020002000200020002000200020003000300030003000300030003000300040004000400040004000400040004,
00000000000000000000000000000000000100010001000100010001000100010002000200020002000200020002000200030003000300030003000300030003,
00010001000100010001000100010001000300030003000300030003000300030002000200020002000200020002000200010001000100010001000100010001,
00020002000200020002000200020002000300030003000300030003000300030004000400040004000400040004000400050005000500050005000500050005,
00010001000100010001000100010001000200020002000200020002000200020003000300030003000300030003000300040004000400040004000400040004,
00000000000000000000000000000000000100010001000100010001000100010002000200020002000200020002000200030003000300030003000300030003,
00010001000100010001000100010001000300030003000300030003000300030002000200020002000200020002000200010001000100010001000100010001,
00020002000200020002000200020002000300030003000300030003000300030004000400040004000400040004000400050005000500050005000500050005,
00010001000100010001000100010001000200020002000200020002000200020003000300030003000300030003000300040004000400040004000400040004,
00000000000000000000000000000000000100010001000100010001000100010002000200020002000200020002000200030003000300030003000300030003;