Memory_Initialization_Radix = 16;
Memory_Initialization_Vector = 
0000000000000000000000000000000000000000000000000000000000000000,
0000000000000000000000000000000000000000000000000000000000000000,
0000000000000000000000000000000000000000000000000000000000000000,
0000000000000000000000000000000000000000000000000000000000000000,
0000000000000000000000000000000000000000000000000000000000000000,
0000000000000000000000000000000000000000000000000000000000000000,
0000000000000000000000000000000000000000000000000000000000000000,
0000000000000000000000000000000000000000000000000000000000000000,
0000000000000000000000000000000000000000000000000000000000000000,
0000000000000000000000000000000000000000000000000000000000000000,
0000000000000000000000000000000000000000000000000000000000000000,
0000000000000000000000000000000000000000000000000000000000000000,
0000000000000000000000000000000000000000000000000000000000000000,
0000000000000000000000000000000000000000000000000000000000000000,
0000000000000000000000000000000000000000000000000000000000000000,
0000000000000000000000000000000000000000000000000000000000000000,
0000000000000000000000000000000000000000000000000000000000000000,
0000000000000000000000000000000000000000000000000000000000000000,
0000000000000000000000000000000000000000000000000000000000000000,
0000000000000000000000000000000000000000000000000000000000000000,
0000000000000000000000000000000000000000000000000000000000000000,
0000000000000000000000000000000000000000000000000000000000000000,
0000000000000000000000000000000000000000000000000000000000000000,
0000000000000000000000000000000000000000000000000000000000000000,
0000000000000000000000000000000000000000000000000000000000000000,
0000000000000000000000000000000000000000000000000000000000000000,
0000000000000000000000000000000000000000000000000000000000000000,
0000000000000000000000000000000000000000000000000000000000000000,
0000000000000000000000000000000000000000000000000000000000000000,
0000000000000000000000000000000000000000000000000000000000000000,
0000000000000000000000000000000000000000000000000000000000000000,
0000000000000000000000000000000000000000000000000000000000000000;