Memory_Initialization_Radix = 16;
Memory_Initialization_Vector = 
39ce739ce739ce739ce7318c6318c6318c6318c6294a5294a5294a5294a52108421084210842108418c6318c6318c6318c6310842108421084210842084210842108421084210000000000000000000039ce739ce739ce739ce7318c6318c6318c6318c6294a5294a5294a5294a52108421084210842108418c6318c6318c6318c63108421084210842108420842108421084210842100000000000000000000,
7bdef7bdef7bdef7bdef739ce739ce739ce739ce6b5ad6b5ad6b5ad6b5ad6318c6318c6318c6318c5ad6b5ad6b5ad6b5ad6b5294a5294a5294a5294a4a5294a5294a5294a529421084210842108421087bdef7bdef7bdef7bdef739ce739ce739ce739ce6b5ad6b5ad6b5ad6b5ad6318c6318c6318c6318c5ad6b5ad6b5ad6b5ad6b5294a5294a5294a5294a4a5294a5294a5294a52942108421084210842108,
bdef7bdef7bdef7bdef7b5ad6b5ad6b5ad6b5ad6ad6b5ad6b5ad6b5ad6b5a5294a5294a5294a52949ce739ce739ce739ce7394a5294a5294a5294a528c6318c6318c6318c63184210842108421084210bdef7bdef7bdef7bdef7b5ad6b5ad6b5ad6b5ad6ad6b5ad6b5ad6b5ad6b5a5294a5294a5294a52949ce739ce739ce739ce7394a5294a5294a5294a528c6318c6318c6318c63184210842108421084210,
fffffffffffffffffffff7bdef7bdef7bdef7bdeef7bdef7bdef7bdef7bde739ce739ce739ce739cdef7bdef7bdef7bdef7bd6b5ad6b5ad6b5ad6b5ace739ce739ce739ce739c6318c6318c6318c6318fffffffffffffffffffff7bdef7bdef7bdef7bdeef7bdef7bdef7bdef7bde739ce739ce739ce739cdef7bdef7bdef7bdef7bd6b5ad6b5ad6b5ad6b5ace739ce739ce739ce739c6318c6318c6318c6318;
